{"num_merges": 1000, "merges": [["s", "</w>"], ["e", "</w>"], ["i", "n"], ["t", "</w>"], ["d", "</w>"], ["e", "r"], ["t", "h"], ["n", "</w>"], ["y", "</w>"], ["o", "r"], ["a", "n"], ["r", "e"], ["a", "r"], ["th", "e</w>"], ["o", "</w>"], ["a", "</w>"], ["a", "l"], ["g", "</w>"], ["s", "t"], ["o", "n</w>"], ["e", "d</w>"], ["e", "n"], ["in", "g</w>"], ["o", "n"], ["er", "</w>"], ["t", "i"], ["o", "f"], ["e", "s</w>"], ["t", "o</w>"], ["i", "c"], ["o", "u"], ["in", "</w>"], ["o", "m"], ["i", "l"], ["of", "</w>"], ["p", "</w>"], ["i", "t"], ["e", "l"], ["a", "t"], ["c", "h"], ["an", "d</w>"], ["e", "s"], ["a", "y</w>"], ["a", "n</w>"], ["a", "s"], ["r", "o"], ["er", "s</w>"], ["al", "</w>"], ["or", "</w>"], ["o", "l"], ["a", "c"], ["e", "c"], ["a", "t</w>"], ["i", "s"], ["a", "s</w>"], ["a", "m"], ["u", "r"], ["d", "ay</w>"], ["k", "</w>"], ["i", "r"], ["n", "e"], ["l", "</w>"], ["i", "s</w>"], ["i", "g"], ["u", "t"], ["s", "h"], ["w", "</w>"], ["a", "d"], ["f", "or</w>"], ["u", "n"], ["l", "e"], ["th", "</w>"], ["l", "o"], ["c", "om"], ["l", "e</w>"], ["u", "s"], ["ti", "on</w>"], ["p", "r"], ["t", "s</w>"], ["a", "g"], ["e", "n</w>"], ["i", "t</w>"], ["en", "t</w>"], ["d", "e"], ["s", "e"], ["s", "i"], ["w", "i"], ["l", "i"], ["e", "d"], ["v", "e</w>"], ["m", "</w>"], ["a", "f"], ["q", "u"], ["l", "y</w>"], ["o", "p"], ["ut", "ers</w>"], ["a", "p"], ["9", "</w>"], ["ig", "h"], ["re", "uters</w>"], ["s", "u"], ["t", "r"], ["s", "t</w>"], ["c", "on"], ["s", "a"], ["w", "h"], ["i", "d</w>"], ["3", "9</w>"], ["t", "er</w>"], ["es", "day</w>"], ["ar", "</w>"], ["p", "ro"], ["p", "l"], ["it", "s</w>"], ["f", "r"], ["th", "at</w>"], ["e", "st"], ["a", "p</w>"], ["s", "p"], ["t", "er"], ["o", "o"], ["o", "w"], ["wi", "th</w>"], ["ou", "n"], ["o", "v"], ["b", "e"], ["ic", "</w>"], ["ar", "e</w>"], ["b", "u"], ["i", "</w>"], ["b", "y</w>"], ["f", "</w>"], ["e", "x"], ["c", "e</w>"], ["k", "s</w>"], ["st", "r"], ["ch", "</w>"], ["com", "p"], ["f", "or"], ["ne", "w</w>"], ["w", "or"], ["h", "a"], ["om", "</w>"], ["ti", "on"], ["a", "k"], ["a", "b"], ["m", "p"], ["a", "u"], ["m", "o"], ["d", "i"], ["e", "t</w>"], ["l", "d</w>"], ["h", "</w>"], ["0", "</w>"], ["in", "g"], ["o", "t</w>"], ["ou", "r"], ["th", "e"], ["u", "l"], ["sa", "id</w>"], ["a", "tion</w>"], ["c", "</w>"], ["t", "u"], ["fr", "om</w>"], ["t", "e"], ["m", "on"], ["p", "o"], ["r", "i"], ["w", "e"], ["v", "i"], ["at", "e</w>"], ["es", "t</w>"], ["c", "or"], ["o", "c"], ["p", "re"], ["d", "s</w>"], ["a", "y"], ["u", "s</w>"], ["t", "ed</w>"], ["it", "y</w>"], ["b", "l"], ["ou", "t</w>"], ["h", "as</w>"], ["m", "ent</w>"], ["of", "f"], ["c", "l"], ["d", "u"], ["al", "l</w>"], ["p", "or"], ["i", "m"], ["il", "l</w>"], ["s", "ec"], ["il", "</w>"], ["r", "a"], ["e", "ar"], ["u", "</w>"], ["t", "w"], ["or", "e</w>"], ["f", "ir"], ["tu", "esday</w>"], ["m", "ar"], ["o", "t"], ["n", "a"], ["p", "h"], ["ic", "e</w>"], ["as", "t</w>"], ["an", "y</w>"], ["p", "er"], ["igh", "t</w>"], ["t", "ing</w>"], ["a", "th"], ["s", "e</w>"], ["ir", "</w>"], ["el", "</w>"], ["v", "er"], ["h", "is</w>"], ["g", "r"], ["af", "ter</w>"], ["i", "st"], ["1", "</w>"], ["r", "u"], ["a", "in"], ["i", "ti"], ["p", "e"], ["on", "e</w>"], ["t", "o"], ["w", "ed"], ["g", "oo"], ["a", "d</w>"], ["s", "c"], ["ar", "g"], ["in", "e</w>"], ["w", "as</w>"], ["tion", "s</w>"], ["wed", "n"], ["wedn", "esday</w>"], ["b", "e</w>"], ["x", "</w>"], ["u", "p</w>"], ["2", "</w>"], ["s", "er"], ["f", "in"], ["p", "u"], ["i", "p"], ["h", "e"], ["er", "e</w>"], ["m", "il"], ["g", "i"], ["d", "ing</w>"], ["ol", "y"], ["ic", "es</w>"], ["oly", "mp"], ["en", "s</w>"], ["m", "ore</w>"], ["c", "o"], ["p", "ar"], ["5", "</w>"], ["l", "t</w>"], ["om", "e</w>"], ["ou", "ld</w>"], ["w", "ill</w>"], ["an", "s</w>"], ["a", "v"], ["g", "le</w>"], ["es", "s</w>"], ["ol", "d</w>"], ["a", "re"], ["bu", "t</w>"], ["ac", "e</w>"], ["g", "re"], ["f", "l"], ["il", "l"], ["k", "e"], ["an", "g"], ["d", "ow"], ["goo", "gle</w>"], ["m", "in"], ["i", "a</w>"], ["in", "ter"], ["e", "m"], ["i", "es</w>"], ["al", "s</w>"], ["g", "t</w>"], ["i", "d"], ["ov", "er"], ["ha", "ve</w>"], ["am", "</w>"], ["e", "ar</w>"], ["st", "oc"], ["6", "</w>"], ["ov", "er</w>"], ["fir", "st</w>"], ["d", "is"], ["in", "v"], ["h", "igh"], ["as", "h"], ["b", "</w>"], ["ac", "k</w>"], ["in", "c</w>"], ["d", "er</w>"], ["comp", "any</w>"], ["o", "il</w>"], ["a", "q"], ["s", "ur"], ["ser", "v"], ["ti", "m"], ["tw", "o</w>"], ["s", "of"], ["the", "ir</w>"], ["4", "</w>"], ["i", "al</w>"], ["an", "n"], ["ti", "c"], ["0", "0"], ["th", "is</w>"], ["o", "w</w>"], ["ag", "e</w>"], ["e", "v"], ["on", "g</w>"], ["b", "r"], ["at", "es</w>"], ["ar", "d</w>"], ["st", "s</w>"], ["t", "on</w>"], ["or", "s</w>"], ["ath", "ens</w>"], ["i", "an</w>"], ["re", "por"], ["en", "ts</w>"], ["w", "in"], ["b", "o"], ["ir", "aq"], ["si", "d"], ["f", "i"], ["y", "ear</w>"], ["an", "c"], ["th", "er</w>"], ["j", "o"], ["t", "ur"], ["g", "am"], ["al", "l"], ["7", "</w>"], ["pr", "ices</w>"], ["it", "e</w>"], ["oun", "d</w>"], ["pr", "of"], ["wor", "ld</w>"], ["an", "d"], ["lo", "w"], ["li", "on</w>"], ["3", "</w>"], ["we", "e"], ["u", "m"], ["m", "ic"], ["inv", "est"], ["m", "is"], ["ing", "s</w>"], ["u", "p"], ["f", "re"], ["ot", "e</w>"], ["ou", "g"], ["en", "ce</w>"], ["sh", "</w>"], ["a", "in</w>"], ["8", "</w>"], ["a", "w"], ["el", "l</w>"], ["m", "ed"], ["mon", "day</w>"], ["m", "e"], ["il", "e</w>"], ["m", "ak"], ["an", "t</w>"], ["h", "e</w>"], ["ex", "p"], ["as", "e</w>"], ["se", "ar"], ["pu", "bl"], ["si", "on</w>"], ["at", "ed</w>"], ["en", "d</w>"], ["y", "or"], ["s", "y"], ["h", "el"], ["c", "ent</w>"], ["yor", "k</w>"], ["st", "e"], ["j", "u"], ["ic", "s</w>"], ["c", "u"], ["ac", "k"], ["n", "ot</w>"], ["m", "a"], ["t", "or"], ["en", "ti"], ["v", "en"], ["th", "an</w>"], ["it", "ed</w>"], ["our", "</w>"], ["s", "s</w>"], ["ro", "w"], ["l", "in"], ["tim", "e</w>"], ["b", "as"], ["am", "er"], ["us", "t</w>"], ["d", "el"], ["tion", "al</w>"], ["an", "ce</w>"], ["n", "ing</w>"], ["g", "e"], ["ap", "p"], ["of", "f</w>"], ["th", "re"], ["p", "ol"], ["ab", "out</w>"], ["olymp", "ic</w>"], ["sec", "ur"], ["com", "</w>"], ["i", "on</w>"], ["c", "oun"], ["el", "l"], ["du", "c"], ["in", "a</w>"], ["the", "y</w>"], ["amer", "ic"], ["p", "s</w>"], ["in", "to</w>"], ["en", "g"], ["d", "ec"], ["ne", "t</w>"], ["s", "al"], ["qu", "ar"], ["qu", "ot</w>"], ["d", "e</w>"], ["stoc", "ks</w>"], ["for", "m"], ["at", "t"], ["d", "es"], ["l", "ast</w>"], ["in", "t"], ["f", "ul"], ["c", "re"], ["ar", "y</w>"], ["st", "ar"], ["re", "d</w>"], ["qu", "ote</w>"], ["lo", "o"], ["iraq", "</w>"], ["a", "tions</w>"], ["er", "ing</w>"], ["est", "er"], ["k", "e</w>"], ["off", "ic"], ["a", "il"], ["ne", "t"], ["m", "an"], ["on", "d</w>"], ["ha", "d</w>"], ["e", "z"], ["y", "s</w>"], ["publ", "ic</w>"], ["un", "d"], ["af", "p</w>"], ["au", "g</w>"], ["es", "s"], ["le", "ad"], ["r", "ic"], ["i", "b"], ["ay", "s</w>"], ["ne", "w"], ["ti", "ve</w>"], ["wh", "o</w>"], ["t", "y</w>"], ["k", "et</w>"], ["u", "c"], ["pre", "sid"], ["c", "ould</w>"], ["w", "ere</w>"], ["ad", "e</w>"], ["be", "en</w>"], ["al", "ly</w>"], ["am", "p"], ["h", "ol"], ["de", "v"], ["2", "00"], ["u", "e</w>"], ["ou", "t"], ["o", "ther</w>"], ["re", "cor"], ["f", "e"], ["na", "tional</w>"], ["e", "f"], ["ag", "ain"], ["again", "st</w>"], ["b", "er"], ["i", "p</w>"], ["sear", "ch</w>"], ["v", "e"], ["l", "and</w>"], ["k", "ing</w>"], ["d", "o"], ["b", "ec"], ["as", "s"], ["d", "ed</w>"], ["n", "or"], ["t", "t"], ["per", "cent</w>"], ["h", "ome</w>"], ["re", "c"], ["b", "ur"], ["c", "lo"], ["w", "ash"], ["g", "old</w>"], ["al", "i"], ["el", "ec"], ["m", "s</w>"], ["con", "t"], ["wee", "k</w>"], ["w", "ar"], ["sec", "ond</w>"], ["0", "0</w>"], ["c", "o</w>"], ["h", "al"], ["t", "ak"], ["wash", "ing"], ["s", "on</w>"], ["ang", "e</w>"], ["b", "il"], ["r", "is"], ["n", "o</w>"], ["ch", "ina</w>"], ["b", "ack</w>"], ["wi", "th"], ["m", "ay</w>"], ["high", "</w>"], ["pr", "ice</w>"], ["pl", "ay"], ["s", "ol"], ["su", "m"], ["mic", "ro"], ["l", "ine</w>"], ["wh", "en</w>"], ["ic", "h</w>"], ["prof", "it</w>"], ["g", "y</w>"], ["f", "ac"], ["recor", "d</w>"], ["on", "s</w>"], ["af", "</w>"], ["g", "e</w>"], ["b", "us"], ["c", "our"], ["sof", "t</w>"], ["s", "l"], ["gr", "ou"], ["su", "p"], ["y", "ester"], ["yester", "day</w>"], ["us", "e</w>"], ["are", "s</w>"], ["presid", "ent</w>"], ["s", "ou"], ["secur", "ity</w>"], ["se", "t</w>"], ["ip", "o</w>"], ["th", "ur"], ["b", "an"], ["un", "ited</w>"], ["v", "es</w>"], ["te", "am</w>"], ["ear", "s</w>"], ["micro", "soft</w>"], ["re", "l"], ["cor", "p</w>"], ["thur", "s"], ["thurs", "day</w>"], ["m", "an</w>"], ["sh", "ar"], ["c", "ar"], ["mar", "ket</w>"], ["i", "m</w>"], ["ac", "c"], ["at", "ing</w>"], ["ir", "d</w>"], ["ful", "l"], ["full", "quote</w>"], ["h", "u"], ["k", "ed</w>"], ["oug", "h</w>"], ["es", "e</w>"], ["n", "ed</w>"], ["re", "le"], ["exp", "ec"], ["c", "ol"], ["na", "j"], ["s", "ome</w>"], ["wh", "ich</w>"], ["washing", "ton</w>"], ["h", "o"], ["re", "s</w>"], ["ol", "o"], ["is", "t</w>"], ["net", "wor"], ["bus", "in"], ["gam", "es</w>"], ["s", "ing</w>"], ["i", "als</w>"], ["am", "e</w>"], ["a", "st"], ["sof", "tw"], ["softw", "are</w>"], ["a", "ir"], ["over", "n"], ["ou", "s</w>"], ["naj", "af</w>"], ["sal", "es</w>"], ["y", "ing</w>"], ["g", "o</w>"], ["c", "r"], ["w", "ould</w>"], ["g", "er</w>"], ["grou", "p</w>"], ["sh", "ares</w>"], ["c", "an</w>"], ["te", "ch"], ["com", "m"], ["dow", "n</w>"], ["el", "y</w>"], ["k", "ill"], ["mo", "st</w>"], ["s", "un"], ["thre", "e</w>"], ["off", "ering</w>"], ["t", "arg"], ["tr", "y</w>"], ["dow", "s</w>"], ["w", "at"], ["c", "an"], ["sa", "ys</w>"], ["pe", "op"], ["f", "er"], ["l", "ed</w>"], ["is", "ra"], ["b", "re"], ["b", "le</w>"], ["ou", "</w>"], ["w", "ay</w>"], ["ist", "er</w>"], ["sc", "i"], ["g", "overn"], ["olymp", "ics</w>"], ["bil", "lion</w>"], ["peop", "le</w>"], ["de", "f"], ["mil", "lion</w>"], ["b", "er</w>"], ["l", "arg"], ["ann", "oun"], ["pl", "ans</w>"], ["ab", "le</w>"], ["iti", "es</w>"], ["g", "o"], ["be", "t"], ["on", "om"], ["s", "en"], ["c", "ap"], ["b", "el"], ["a", "ch</w>"], ["b", "lo"], ["sun", "day</w>"], ["ec", "e</w>"], ["r", "y</w>"], ["ol", "</w>"], ["st", "re"], ["en", "c"], ["up", "d"], ["a", "z"], ["pr", "is"], ["cl", "u"], ["t", "al"], ["ter", "r"], ["in", "di"], ["c", "en"], ["n", "ow</w>"], ["e", "u"], ["in", "f"], ["b", "oo"], ["sp", "ec"], ["tech", "n"], ["or", "y</w>"], ["r", "</w>"], ["pro", "duc"], ["s", "ed</w>"], ["s", "ig"], ["win", "dows</w>"], ["p", "ow"], ["w", "in</w>"], ["t", "ro"], ["inter", "net</w>"], ["gre", "ece</w>"], ["in", "iti"], ["j", "ap"], ["b", "ri"], ["g", "ed</w>"], ["as", "h</w>"], ["i", "f</w>"], ["ag", "o</w>"], ["a", "ir</w>"], ["b", "ro"], ["m", "en</w>"], ["announ", "c"], ["s", "o"], ["n", "s</w>"], ["k", "er</w>"], ["w", "on</w>"], ["au", "str"], ["he", "ad</w>"], ["stoc", "k</w>"], ["comp", "ut"], ["p", "e</w>"], ["v", "ed</w>"], ["i", "mp"], ["ec", "onom"], ["us", "ed</w>"], ["n", "ings</w>"], ["wh", "at</w>"], ["min", "ister</w>"], ["e", "ment</w>"], ["to", "p</w>"], ["eu", "ro"], ["n", "ight</w>"], ["it", "al</w>"], ["i", "z"], ["an", "ts</w>"], ["s", "us"], ["govern", "ment</w>"], ["is", "h</w>"], ["as", "on</w>"], ["be", "for"], ["befor", "e</w>"], ["st", "ates</w>"], ["d", "ro"], ["sus", "p"], ["to", "day</w>"], ["h", "ur"], ["er", "ed</w>"], ["b", "all</w>"], ["st", "ed</w>"], ["dev", "el"], ["l", "a"], ["b", "i"], ["f", "u"], ["g", "et</w>"], ["techn", "olo"], ["op", "er"], ["jo", "h"], ["d", "on</w>"], ["op", "s</w>"], ["t", "re"], ["busin", "ess</w>"], ["j", "ust</w>"], ["high", "er</w>"], ["t", "en"], ["sh", "ow"], ["v", "is"], ["en", "er"], ["s", "o</w>"], ["g", "u"], ["v", "ing</w>"], ["cl", "a"], ["g", "row"], ["b", "ar"], ["initi", "al</w>"], ["y", "ears</w>"], ["ec", "t</w>"], ["g", "h"], ["americ", "an</w>"], ["cour", "t</w>"], ["l", "on"], ["lo", "w</w>"], ["st", "ate</w>"], ["e", "p"], ["00", "0</w>"], ["m", "u"], ["v", "ic"], ["v", "er</w>"], ["ic", "al</w>"], ["t", "ers</w>"], ["f", "t</w>"], ["gam", "e</w>"], ["quar", "ter</w>"], ["vi", "e"], ["i", "ver"], ["p", "ed</w>"], ["new", "s</w>"], ["ag", "re"], ["ed", "er"], ["f", "un"], ["ar", "m"], ["repor", "t</w>"], ["we", "b</w>"], ["st", "or"], ["ib", "m</w>"], ["c", "ity</w>"], ["g", "er"], ["mis", "sion</w>"], ["comput", "er</w>"], ["offic", "ials</w>"], ["d", "ru"], ["re", "g"], ["ic", "k"], ["pl", "an</w>"], ["f", "our</w>"], ["oug", "h"], ["ph", "one</w>"], ["le", "y</w>"], ["h", "am"], ["ph", "el"], ["can", "ad"], ["sou", "th</w>"], ["targ", "et</w>"], ["ch", "ar"], ["str", "ong</w>"], ["as", "ed</w>"], ["ne", "x"], ["sp", "ace</w>"], ["a", "ch"], ["fin", "al</w>"], ["m", "any</w>"], ["f", "eder"], ["p", "al"], ["serv", "ice</w>"], ["y", "ou</w>"], ["s", "ad"], ["ch", "arg"], ["is", "h"], ["mon", "th</w>"], ["mil", "it"], ["s", "pr"], ["w", "om"], ["f", "oo"], ["sci", "enti"], ["austr", "al"], ["c", "all"], ["er", "n</w>"], ["in", "ce</w>"], ["ac", "t</w>"], ["c", "ru"], ["ou", "s"], ["str", "uc"], ["ap", "pe"], ["m", "us"], ["l", "es</w>"], ["th", "r"], ["ch", "amp"], ["de", "m"], ["repor", "ted</w>"], ["200", "4</w>"], ["a", "use</w>"], ["e", "ight</w>"], ["1", "8</w>"], ["v", "en</w>"], ["nex", "t</w>"], ["ic", "k</w>"], ["a", "ti"], ["ju", "ly</w>"], ["larg", "est</w>"], ["technolo", "gy</w>"], ["pro", "t"], ["us", "si"], ["devel", "op"], ["le", "g"], ["cu", "t</w>"], ["s", "at"], ["t", "or</w>"], ["d", "re"], ["ban", "k</w>"], ["d", "at"], ["h", "p</w>"], ["ste", "m</w>"], ["gre", "e"], ["coun", "try</w>"], ["s", "ch"], ["phel", "ps</w>"], ["ear", "nings</w>"], ["ac", "cor"], ["pr", "im"], ["u", "el"], ["re", "t"], ["sh", "are</w>"], ["expec", "ted</w>"], ["cu", "st"], ["m", "at"], ["accor", "ding</w>"], ["th", "ird</w>"], ["i", "e"], ["ven", "ez"], ["venez", "uel"], ["be", "g"], ["w", "w"], ["invest", "or</w>"], ["b", "s</w>"], ["en", "ter"], ["dis", "c"], ["m", "or"], ["inter", "national</w>"], ["ow", "n</w>"], ["tr", "ad"], ["l", "at"], ["con", "sum"], ["st", "u"], ["med", "al</w>"], ["re", "su"], ["li", "f"], ["an", "ds</w>"], ["ne", "ar</w>"], ["e", "t"], ["u", "al</w>"], ["ch", "ange</w>"], ["v", "ir"], ["r", "ussi"], ["le", "t"], ["h", "om"], ["h", "tt"], ["htt", "p</w>"], ["tic", "ker</w>"], ["l", "ing</w>"], ["wh", "ere</w>"], ["s", "w"], ["iraq", "i</w>"], ["ur", "e</w>"], ["ma", "j"], ["t", "le</w>"], ["de", "p"], ["ur", "</w>"], ["ww", "w</w>"], ["hal", "f</w>"], ["invest", "ors</w>"], ["t", "el"], ["d", "ra"], ["po", "s"], ["man", "ag"], ["f", "ound</w>"], ["bas", "ed</w>"], ["th", "or"], ["v", "al</w>"], ["h", "op"], ["cont", "in"], ["inf", "o</w>"], ["ti", "sh</w>"], ["sy", "stem</w>"], ["ig", "n</w>"], ["x", "p</w>"], ["in", "s</w>"], ["an", "ti"], ["se", "ason</w>"], ["ut", "s</w>"], ["w", "all</w>"], ["qu", "ick"], ["ec", "ts</w>"], ["bri", "tish</w>"], ["tro", "ops</w>"], ["a", "il</w>"], ["fin", "anc"], ["h", "ou"], ["i", "f"], ["r", "ad"], ["3", "6</w>"], ["tor", "y</w>"], ["s", "an</w>"], ["sad", "r</w>"], ["e", "y</w>"], ["d", "ol"], ["h", "re"], ["hre", "f</w>"], ["wh", "ile</w>"], ["an", "e</w>"], ["upd", "ate</w>"], ["p", "op"], ["ez", "</w>"], ["a", "k</w>"], ["app", "le</w>"], ["prim", "e</w>"], ["as", "p"], ["g", "g"], ["h", "it</w>"], ["i", "v"], ["ru", "n</w>"], ["announc", "ed</w>"], ["6", "6"], ["mo", "b"], ["pr", "om"], ["c", "le"], ["or", "e"], ["re", "search</w>"], ["st", "ill</w>"], ["h", "ow</w>"], ["sh", "ip</w>"], ["op", "en</w>"]], "vocab": ["0", "00", "000</w>", "00</w>", "0</w>", "1", "18</w>", "1</w>", "2", "200", "2004</w>", "2</w>", "3", "36</w>", "39</w>", "3</w>", "4", "4</w>", "5", "5</w>", "6", "66", "6</w>", "7", "7</w>", "8", "8</w>", "9", "9</w>", "</w>", "a", "a</w>", "ab", "able</w>", "about</w>", "ac", "acc", "accor", "according</w>", "ace</w>", "ach", "ach</w>", "ack", "ack</w>", "act</w>", "ad", "ad</w>", "ade</w>", "af", "af</w>", "afp</w>", "after</w>", "ag", "against</w>", "age</w>", "ago</w>", "agre", "ail", "ail</w>", "ain", "ain</w>", "air", "air</w>", "ak", "ak</w>", "al", "al</w>", "ali", "all", "all</w>", "ally</w>", "als</w>", "am", "am</w>", "ame</w>", "amer", "americ", "american</w>", "amp", "an", "an</w>", "anc", "ance</w>", "and", "and</w>", "ands</w>", "ane</w>", "ang", "ange</w>", "ann", "announ", "announc", "announced</w>", "ans</w>", "ant</w>", "anti", "ants</w>", "any</w>", "ap", "ap</w>", "app", "appe", "apple</w>", "aq", "ar", "ar</w>", "ard</w>", "are", "are</w>", "ares</w>", "arg", "arm", "ary</w>", "as", "as</w>", "ase</w>", "ased</w>", "ash", "ash</w>", "ason</w>", "asp", "ass", "ast", "ast</w>", "at", "at</w>", "ate</w>", "ated</w>", "ates</w>", "ath", "athens</w>", "ati", "ating</w>", "ation</w>", "ations</w>", "att", "au", "aug</w>", "ause</w>", "austr", "austral", "av", "aw", "ay", "ay</w>", "ays</w>", "az", "b", "b</w>", "back</w>", "ball</w>", "ban", "bank</w>", "bar", "bas", "based</w>", "be", "be</w>", "bec", "been</w>", "before</w>", "beg", "bel", "ber", "ber</w>", "bet", "bi", "bil", "billion</w>", "bl", "ble</w>", "blo", "bo", "boo", "br", "bre", "bri", "british</w>", "bro", "bs</w>", "bu", "bur", "bus", "busin", "business</w>", "but</w>", "by</w>", "c", "c</w>", "call", "can", "can</w>", "canad", "cap", "car", "ce</w>", "cen", "cent</w>", "ch", "ch</w>", "champ", "change</w>", "char", "charg", "china</w>", "city</w>", "cl", "cla", "cle", "clo", "clu", "co", "co</w>", "col", "com", "com</w>", "comm", "comp", "company</w>", "comput", "computer</w>", "con", "consum", "cont", "contin", "cor", "corp</w>", "could</w>", "coun", "country</w>", "cour", "court</w>", "cr", "cre", "cru", "cu", "cust", "cut</w>", "d", "d</w>", "dat", "day</w>", "de", "de</w>", "dec", "ded</w>", "def", "del", "dem", "dep", "der</w>", "des", "dev", "devel", "develop", "di", "ding</w>", "dis", "disc", "do", "dol", "don</w>", "dow", "down</w>", "dows</w>", "dra", "dre", "dro", "dru", "ds</w>", "du", "duc", "e", "e</w>", "ear", "ear</w>", "earnings</w>", "ears</w>", "ec", "ece</w>", "econom", "ect</w>", "ects</w>", "ed", "ed</w>", "eder", "ef", "eight</w>", "el", "el</w>", "elec", "ell", "ell</w>", "ely</w>", "em", "ement</w>", "en", "en</w>", "enc", "ence</w>", "end</w>", "ener", "eng", "ens</w>", "ent</w>", "enter", "enti", "ents</w>", "ep", "er", "er</w>", "ere</w>", "ered</w>", "ering</w>", "ern</w>", "ers</w>", "es", "es</w>", "ese</w>", "ess", "ess</w>", "est", "est</w>", "ester", "et", "et</w>", "eu", "euro", "ev", "ex", "exp", "expec", "expected</w>", "ey</w>", "ez", "ez</w>", "f", "f</w>", "fac", "fe", "feder", "fer", "fi", "fin", "final</w>", "financ", "fir", "first</w>", "fl", "foo", "for", "for</w>", "form", "found</w>", "four</w>", "fr", "fre", "from</w>", "ft</w>", "fu", "ful", "fullquote</w>", "fun", "g", "g</w>", "gam", "game</w>", "games</w>", "ge", "ge</w>", "ged</w>", "ger", "ger</w>", "get</w>", "gg", "gh", "gi", "gle</w>", "go", "go</w>", "gold</w>", "goo", "google</w>", "govern", "government</w>", "gr", "gre", "gree", "greece</w>", "grou", "group</w>", "grow", "gt</w>", "gu", "gy</w>", "h", "h</w>", "ha", "had</w>", "hal", "half</w>", "ham", "has</w>", "have</w>", "he", "he</w>", "head</w>", "hel", "high", "high</w>", "higher</w>", "his</w>", "hit</w>", "ho", "hol", "hom", "home</w>", "hop", "hou", "how</w>", "hp</w>", "href</w>", "http</w>", "hu", "hur", "i", "i</w>", "ia</w>", "ial</w>", "ials</w>", "ian</w>", "ib", "ibm</w>", "ic", "ic</w>", "ical</w>", "ice</w>", "ices</w>", "ich</w>", "ick", "ick</w>", "ics</w>", "id", "id</w>", "ie", "ies</w>", "if", "if</w>", "ig", "igh", "ight</w>", "ign</w>", "il", "il</w>", "ile</w>", "ill", "ill</w>", "im", "im</w>", "imp", "in", "in</w>", "ina</w>", "inc</w>", "ince</w>", "indi", "ine</w>", "inf", "info</w>", "ing", "ing</w>", "ings</w>", "initi", "initial</w>", "ins</w>", "int", "inter", "international</w>", "internet</w>", "into</w>", "inv", "invest", "investor</w>", "investors</w>", "ion</w>", "ip", "ip</w>", "ipo</w>", "ir", "ir</w>", "iraq", "iraq</w>", "iraqi</w>", "ird</w>", "is", "is</w>", "ish", "ish</w>", "isra", "ist", "ist</w>", "ister</w>", "it", "it</w>", "ital</w>", "ite</w>", "ited</w>", "iti", "ities</w>", "its</w>", "ity</w>", "iv", "iver", "iz", "j", "jap", "jo", "joh", "ju", "july</w>", "just</w>", "k", "k</w>", "ke", "ke</w>", "ked</w>", "ker</w>", "ket</w>", "kill", "king</w>", "ks</w>", "l", "l</w>", "la", "land</w>", "larg", "largest</w>", "last</w>", "lat", "ld</w>", "le", "le</w>", "lead", "led</w>", "leg", "les</w>", "let", "ley</w>", "li", "lif", "lin", "line</w>", "ling</w>", "lion</w>", "lo", "lon", "loo", "low", "low</w>", "lt</w>", "ly</w>", "m", "m</w>", "ma", "maj", "mak", "man", "man</w>", "manag", "many</w>", "mar", "market</w>", "mat", "may</w>", "me", "med", "medal</w>", "men</w>", "ment</w>", "mic", "micro", "microsoft</w>", "mil", "milit", "million</w>", "min", "minister</w>", "mis", "mission</w>", "mo", "mob", "mon", "monday</w>", "month</w>", "mor", "more</w>", "most</w>", "mp", "ms</w>", "mu", "mus", "n", "n</w>", "na", "naj", "najaf</w>", "national</w>", "ne", "near</w>", "ned</w>", "net", "net</w>", "networ", "new", "new</w>", "news</w>", "nex", "next</w>", "night</w>", "ning</w>", "nings</w>", "no</w>", "nor", "not</w>", "now</w>", "ns</w>", "o", "o</w>", "oc", "of", "of</w>", "off", "off</w>", "offering</w>", "offic", "officials</w>", "oil</w>", "ol", "ol</w>", "old</w>", "olo", "oly", "olymp", "olympic</w>", "olympics</w>", "om", "om</w>", "ome</w>", "on", "on</w>", "ond</w>", "one</w>", "ong</w>", "onom", "ons</w>", "oo", "op", "open</w>", "oper", "ops</w>", "or", "or</w>", "ore", "ore</w>", "ors</w>", "ory</w>", "ot", "ot</w>", "ote</w>", "other</w>", "ou", "ou</w>", "oug", "ough", "ough</w>", "ould</w>", "oun", "ound</w>", "our", "our</w>", "ous", "ous</w>", "out", "out</w>", "ov", "over", "over</w>", "overn", "ow", "ow</w>", "own</w>", "p", "p</w>", "pal", "par", "pe", "pe</w>", "ped</w>", "peop", "people</w>", "per", "percent</w>", "ph", "phel", "phelps</w>", "phone</w>", "pl", "plan</w>", "plans</w>", "play", "po", "pol", "pop", "por", "pos", "pow", "pr", "pre", "presid", "president</w>", "price</w>", "prices</w>", "prim", "prime</w>", "pris", "pro", "produc", "prof", "profit</w>", "prom", "prot", "ps</w>", "pu", "publ", "public</w>", "q", "qu", "quar", "quarter</w>", "quick", "quot</w>", "quote</w>", "r", "r</w>", "ra", "rad", "re", "rec", "recor", "record</w>", "red</w>", "reg", "rel", "rele", "repor", "report</w>", "reported</w>", "res</w>", "research</w>", "resu", "ret", "reuters</w>", "ri", "ric", "ris", "ro", "row", "ru", "run</w>", "russi", "ry</w>", "s", "s</w>", "sa", "sad", "sadr</w>", "said</w>", "sal", "sales</w>", "san</w>", "sat", "says</w>", "sc", "sch", "sci", "scienti", "se", "se</w>", "sear", "search</w>", "season</w>", "sec", "second</w>", "secur", "security</w>", "sed</w>", "sen", "ser", "serv", "service</w>", "set</w>", "sh", "sh</w>", "shar", "share</w>", "shares</w>", "ship</w>", "show", "si", "sid", "sig", "sing</w>", "sion</w>", "sl", "so", "so</w>", "sof", "soft</w>", "software</w>", "sol", "some</w>", "son</w>", "sou", "south</w>", "sp", "space</w>", "spec", "spr", "ss</w>", "st", "st</w>", "star", "state</w>", "states</w>", "ste", "sted</w>", "stem</w>", "still</w>", "stoc", "stock</w>", "stocks</w>", "stor", "str", "stre", "strong</w>", "struc", "sts</w>", "stu", "su", "sum", "sun", "sunday</w>", "sup", "sur", "sus", "susp", "sw", "sy", "system</w>", "t", "t</w>", "tak", "tal", "targ", "target</w>", "te", "team</w>", "tech", "techn", "technolo", "technology</w>", "ted</w>", "tel", "ten", "ter", "ter</w>", "terr", "ters</w>", "th", "th</w>", "than</w>", "that</w>", "the", "the</w>", "their</w>", "ther</w>", "they</w>", "third</w>", "this</w>", "thor", "thr", "thre", "three</w>", "thur", "thursday</w>", "ti", "tic", "ticker</w>", "tim", "time</w>", "ting</w>", "tion", "tion</w>", "tional</w>", "tions</w>", "tish</w>", "tive</w>", "tle</w>", "to", "to</w>", "today</w>", "ton</w>", "top</w>", "tor", "tor</w>", "tory</w>", "tr", "trad", "tre", "tro", "troops</w>", "try</w>", "ts</w>", "tt", "tu", "tuesday</w>", "tur", "tw", "two</w>", "ty</w>", "u", "u</w>", "ual</w>", "uc", "ue</w>", "uel", "ul", "um", "un", "und", "united</w>", "up", "up</w>", "upd", "update</w>", "ur", "ur</w>", "ure</w>", "us", "us</w>", "use</w>", "used</w>", "ussi", "ust</w>", "ut", "uters</w>", "uts</w>", "v", "val</w>", "ve", "ve</w>", "ved</w>", "ven", "ven</w>", "venezuel", "ver", "ver</w>", "ves</w>", "vi", "vic", "vie", "ving</w>", "vir", "vis", "w", "w</w>", "wall</w>", "war", "was</w>", "wash", "washing", "washington</w>", "wat", "way</w>", "we", "web</w>", "wed", "wednesday</w>", "wee", "week</w>", "were</w>", "wh", "what</w>", "when</w>", "where</w>", "which</w>", "while</w>", "who</w>", "wi", "will</w>", "win", "win</w>", "windows</w>", "with", "with</w>", "wom", "won</w>", "wor", "world</w>", "would</w>", "ww", "www</w>", "x", "x</w>", "xp</w>", "y", "y</w>", "year</w>", "years</w>", "yesterday</w>", "ying</w>", "yor", "york</w>", "you</w>", "ys</w>", "z"]}