{"num_merges": 500, "merges": [["s", "</w>"], ["e", "</w>"], ["i", "n"], ["t", "</w>"], ["d", "</w>"], ["e", "r"], ["t", "h"], ["n", "</w>"], ["y", "</w>"], ["o", "r"], ["a", "n"], ["r", "e"], ["a", "r"], ["th", "e</w>"], ["o", "</w>"], ["a", "</w>"], ["a", "l"], ["g", "</w>"], ["s", "t"], ["o", "n</w>"], ["e", "d</w>"], ["e", "n"], ["in", "g</w>"], ["o", "n"], ["er", "</w>"], ["t", "i"], ["o", "f"], ["e", "s</w>"], ["t", "o</w>"], ["i", "c"], ["o", "u"], ["in", "</w>"], ["o", "m"], ["i", "l"], ["of", "</w>"], ["p", "</w>"], ["i", "t"], ["e", "l"], ["a", "t"], ["c", "h"], ["an", "d</w>"], ["e", "s"], ["a", "y</w>"], ["a", "n</w>"], ["a", "s"], ["r", "o"], ["er", "s</w>"], ["al", "</w>"], ["or", "</w>"], ["o", "l"], ["a", "c"], ["e", "c"], ["a", "t</w>"], ["i", "s"], ["a", "s</w>"], ["a", "m"], ["u", "r"], ["d", "ay</w>"], ["k", "</w>"], ["i", "r"], ["n", "e"], ["l", "</w>"], ["i", "s</w>"], ["i", "g"], ["u", "t"], ["s", "h"], ["w", "</w>"], ["a", "d"], ["f", "or</w>"], ["u", "n"], ["l", "e"], ["th", "</w>"], ["l", "o"], ["c", "om"], ["l", "e</w>"], ["u", "s"], ["ti", "on</w>"], ["p", "r"], ["t", "s</w>"], ["a", "g"], ["e", "n</w>"], ["i", "t</w>"], ["en", "t</w>"], ["d", "e"], ["s", "e"], ["s", "i"], ["w", "i"], ["l", "i"], ["e", "d"], ["v", "e</w>"], ["m", "</w>"], ["a", "f"], ["q", "u"], ["l", "y</w>"], ["o", "p"], ["ut", "ers</w>"], ["a", "p"], ["9", "</w>"], ["ig", "h"], ["re", "uters</w>"], ["s", "u"], ["t", "r"], ["s", "t</w>"], ["c", "on"], ["s", "a"], ["w", "h"], ["i", "d</w>"], ["3", "9</w>"], ["t", "er</w>"], ["es", "day</w>"], ["ar", "</w>"], ["p", "ro"], ["p", "l"], ["it", "s</w>"], ["f", "r"], ["th", "at</w>"], ["e", "st"], ["a", "p</w>"], ["s", "p"], ["t", "er"], ["o", "o"], ["o", "w"], ["wi", "th</w>"], ["ou", "n"], ["o", "v"], ["b", "e"], ["ic", "</w>"], ["ar", "e</w>"], ["b", "u"], ["i", "</w>"], ["b", "y</w>"], ["f", "</w>"], ["e", "x"], ["c", "e</w>"], ["k", "s</w>"], ["st", "r"], ["ch", "</w>"], ["com", "p"], ["f", "or"], ["ne", "w</w>"], ["w", "or"], ["h", "a"], ["om", "</w>"], ["ti", "on"], ["a", "k"], ["a", "b"], ["m", "p"], ["a", "u"], ["m", "o"], ["d", "i"], ["e", "t</w>"], ["l", "d</w>"], ["h", "</w>"], ["0", "</w>"], ["in", "g"], ["o", "t</w>"], ["ou", "r"], ["th", "e"], ["u", "l"], ["sa", "id</w>"], ["a", "tion</w>"], ["c", "</w>"], ["t", "u"], ["fr", "om</w>"], ["t", "e"], ["m", "on"], ["p", "o"], ["r", "i"], ["w", "e"], ["v", "i"], ["at", "e</w>"], ["es", "t</w>"], ["c", "or"], ["o", "c"], ["p", "re"], ["d", "s</w>"], ["a", "y"], ["u", "s</w>"], ["t", "ed</w>"], ["it", "y</w>"], ["b", "l"], ["ou", "t</w>"], ["h", "as</w>"], ["m", "ent</w>"], ["of", "f"], ["c", "l"], ["d", "u"], ["al", "l</w>"], ["p", "or"], ["i", "m"], ["il", "l</w>"], ["s", "ec"], ["il", "</w>"], ["r", "a"], ["e", "ar"], ["u", "</w>"], ["t", "w"], ["or", "e</w>"], ["f", "ir"], ["tu", "esday</w>"], ["m", "ar"], ["o", "t"], ["n", "a"], ["p", "h"], ["ic", "e</w>"], ["as", "t</w>"], ["an", "y</w>"], ["p", "er"], ["igh", "t</w>"], ["t", "ing</w>"], ["a", "th"], ["s", "e</w>"], ["ir", "</w>"], ["el", "</w>"], ["v", "er"], ["h", "is</w>"], ["g", "r"], ["af", "ter</w>"], ["i", "st"], ["1", "</w>"], ["r", "u"], ["a", "in"], ["i", "ti"], ["p", "e"], ["on", "e</w>"], ["t", "o"], ["w", "ed"], ["g", "oo"], ["a", "d</w>"], ["s", "c"], ["ar", "g"], ["in", "e</w>"], ["w", "as</w>"], ["tion", "s</w>"], ["wed", "n"], ["wedn", "esday</w>"], ["b", "e</w>"], ["x", "</w>"], ["u", "p</w>"], ["2", "</w>"], ["s", "er"], ["f", "in"], ["p", "u"], ["i", "p"], ["h", "e"], ["er", "e</w>"], ["m", "il"], ["g", "i"], ["d", "ing</w>"], ["ol", "y"], ["ic", "es</w>"], ["oly", "mp"], ["en", "s</w>"], ["m", "ore</w>"], ["c", "o"], ["p", "ar"], ["5", "</w>"], ["l", "t</w>"], ["om", "e</w>"], ["ou", "ld</w>"], ["w", "ill</w>"], ["an", "s</w>"], ["a", "v"], ["g", "le</w>"], ["es", "s</w>"], ["ol", "d</w>"], ["a", "re"], ["bu", "t</w>"], ["ac", "e</w>"], ["g", "re"], ["f", "l"], ["il", "l"], ["k", "e"], ["an", "g"], ["d", "ow"], ["goo", "gle</w>"], ["m", "in"], ["i", "a</w>"], ["in", "ter"], ["e", "m"], ["i", "es</w>"], ["al", "s</w>"], ["g", "t</w>"], ["i", "d"], ["ov", "er"], ["ha", "ve</w>"], ["am", "</w>"], ["e", "ar</w>"], ["st", "oc"], ["6", "</w>"], ["ov", "er</w>"], ["fir", "st</w>"], ["d", "is"], ["in", "v"], ["h", "igh"], ["as", "h"], ["b", "</w>"], ["ac", "k</w>"], ["in", "c</w>"], ["d", "er</w>"], ["comp", "any</w>"], ["o", "il</w>"], ["a", "q"], ["s", "ur"], ["ser", "v"], ["ti", "m"], ["tw", "o</w>"], ["s", "of"], ["the", "ir</w>"], ["4", "</w>"], ["i", "al</w>"], ["an", "n"], ["ti", "c"], ["0", "0"], ["th", "is</w>"], ["o", "w</w>"], ["ag", "e</w>"], ["e", "v"], ["on", "g</w>"], ["b", "r"], ["at", "es</w>"], ["ar", "d</w>"], ["st", "s</w>"], ["t", "on</w>"], ["or", "s</w>"], ["ath", "ens</w>"], ["i", "an</w>"], ["re", "por"], ["en", "ts</w>"], ["w", "in"], ["b", "o"], ["ir", "aq"], ["si", "d"], ["f", "i"], ["y", "ear</w>"], ["an", "c"], ["th", "er</w>"], ["j", "o"], ["t", "ur"], ["g", "am"], ["al", "l"], ["7", "</w>"], ["pr", "ices</w>"], ["it", "e</w>"], ["oun", "d</w>"], ["pr", "of"], ["wor", "ld</w>"], ["an", "d"], ["lo", "w"], ["li", "on</w>"], ["3", "</w>"], ["we", "e"], ["u", "m"], ["m", "ic"], ["inv", "est"], ["m", "is"], ["ing", "s</w>"], ["u", "p"], ["f", "re"], ["ot", "e</w>"], ["ou", "g"], ["en", "ce</w>"], ["sh", "</w>"], ["a", "in</w>"], ["8", "</w>"], ["a", "w"], ["el", "l</w>"], ["m", "ed"], ["mon", "day</w>"], ["m", "e"], ["il", "e</w>"], ["m", "ak"], ["an", "t</w>"], ["h", "e</w>"], ["ex", "p"], ["as", "e</w>"], ["se", "ar"], ["pu", "bl"], ["si", "on</w>"], ["at", "ed</w>"], ["en", "d</w>"], ["y", "or"], ["s", "y"], ["h", "el"], ["c", "ent</w>"], ["yor", "k</w>"], ["st", "e"], ["j", "u"], ["ic", "s</w>"], ["c", "u"], ["ac", "k"], ["n", "ot</w>"], ["m", "a"], ["t", "or"], ["en", "ti"], ["v", "en"], ["th", "an</w>"], ["it", "ed</w>"], ["our", "</w>"], ["s", "s</w>"], ["ro", "w"], ["l", "in"], ["tim", "e</w>"], ["b", "as"], ["am", "er"], ["us", "t</w>"], ["d", "el"], ["tion", "al</w>"], ["an", "ce</w>"], ["n", "ing</w>"], ["g", "e"], ["ap", "p"], ["of", "f</w>"], ["th", "re"], ["p", "ol"], ["ab", "out</w>"], ["olymp", "ic</w>"], ["sec", "ur"], ["com", "</w>"], ["i", "on</w>"], ["c", "oun"], ["el", "l"], ["du", "c"], ["in", "a</w>"], ["the", "y</w>"], ["amer", "ic"], ["p", "s</w>"], ["in", "to</w>"], ["en", "g"], ["d", "ec"], ["ne", "t</w>"], ["s", "al"], ["qu", "ar"], ["qu", "ot</w>"], ["d", "e</w>"], ["stoc", "ks</w>"], ["for", "m"], ["at", "t"], ["d", "es"], ["l", "ast</w>"], ["in", "t"], ["f", "ul"], ["c", "re"], ["ar", "y</w>"], ["st", "ar"], ["re", "d</w>"], ["qu", "ote</w>"], ["lo", "o"], ["iraq", "</w>"], ["a", "tions</w>"], ["er", "ing</w>"], ["est", "er"], ["k", "e</w>"], ["off", "ic"], ["a", "il"], ["ne", "t"], ["m", "an"], ["on", "d</w>"], ["ha", "d</w>"], ["e", "z"], ["y", "s</w>"], ["publ", "ic</w>"], ["un", "d"], ["af", "p</w>"], ["au", "g</w>"], ["es", "s"], ["le", "ad"], ["r", "ic"], ["i", "b"], ["ay", "s</w>"], ["ne", "w"], ["ti", "ve</w>"], ["wh", "o</w>"], ["t", "y</w>"], ["k", "et</w>"], ["u", "c"], ["pre", "sid"], ["c", "ould</w>"], ["w", "ere</w>"], ["ad", "e</w>"], ["be", "en</w>"], ["al", "ly</w>"], ["am", "p"], ["h", "ol"], ["de", "v"], ["2", "00"], ["u", "e</w>"], ["ou", "t"], ["o", "ther</w>"], ["re", "cor"], ["f", "e"], ["na", "tional</w>"], ["e", "f"], ["ag", "ain"], ["again", "st</w>"], ["b", "er"], ["i", "p</w>"], ["sear", "ch</w>"], ["v", "e"], ["l", "and</w>"]], "vocab": ["0", "00", "0</w>", "1", "1</w>", "2", "200", "2</w>", "3", "39</w>", "3</w>", "4", "4</w>", "5", "5</w>", "6", "6</w>", "7", "7</w>", "8", "8</w>", "9", "9</w>", "</w>", "a", "a</w>", "ab", "about</w>", "ac", "ace</w>", "ack", "ack</w>", "ad", "ad</w>", "ade</w>", "af", "afp</w>", "after</w>", "ag", "against</w>", "age</w>", "ail", "ain", "ain</w>", "ak", "al", "al</w>", "all", "all</w>", "ally</w>", "als</w>", "am", "am</w>", "amer", "americ", "amp", "an", "an</w>", "anc", "ance</w>", "and", "and</w>", "ang", "ann", "ans</w>", "ant</w>", "any</w>", "ap", "ap</w>", "app", "aq", "ar", "ar</w>", "ard</w>", "are", "are</w>", "arg", "ary</w>", "as", "as</w>", "ase</w>", "ash", "ast</w>", "at", "at</w>", "ate</w>", "ated</w>", "ates</w>", "ath", "athens</w>", "ation</w>", "ations</w>", "att", "au", "aug</w>", "av", "aw", "ay", "ay</w>", "ays</w>", "b", "b</w>", "bas", "be", "be</w>", "been</w>", "ber", "bl", "bo", "br", "bu", "but</w>", "by</w>", "c", "c</w>", "ce</w>", "cent</w>", "ch", "ch</w>", "cl", "co", "com", "com</w>", "comp", "company</w>", "con", "cor", "could</w>", "coun", "cre", "cu", "d", "d</w>", "day</w>", "de", "de</w>", "dec", "del", "der</w>", "des", "dev", "di", "ding</w>", "dis", "dow", "ds</w>", "du", "duc", "e", "e</w>", "ear", "ear</w>", "ec", "ed", "ed</w>", "ef", "el", "el</w>", "ell", "ell</w>", "em", "en", "en</w>", "ence</w>", "end</w>", "eng", "ens</w>", "ent</w>", "enti", "ents</w>", "er", "er</w>", "ere</w>", "ering</w>", "ers</w>", "es", "es</w>", "ess", "ess</w>", "est", "est</w>", "ester", "et</w>", "ev", "ex", "exp", "ez", "f", "f</w>", "fe", "fi", "fin", "fir", "first</w>", "fl", "for", "for</w>", "form", "fr", "fre", "from</w>", "ful", "g", "g</w>", "gam", "ge", "gi", "gle</w>", "goo", "google</w>", "gr", "gre", "gt</w>", "h", "h</w>", "ha", "had</w>", "has</w>", "have</w>", "he", "he</w>", "hel", "high", "his</w>", "hol", "i", "i</w>", "ia</w>", "ial</w>", "ian</w>", "ib", "ic", "ic</w>", "ice</w>", "ices</w>", "ics</w>", "id", "id</w>", "ies</w>", "ig", "igh", "ight</w>", "il", "il</w>", "ile</w>", "ill", "ill</w>", "im", "in", "in</w>", "ina</w>", "inc</w>", "ine</w>", "ing", "ing</w>", "ings</w>", "int", "inter", "into</w>", "inv", "invest", "ion</w>", "ip", "ip</w>", "ir", "ir</w>", "iraq", "iraq</w>", "is", "is</w>", "ist", "it", "it</w>", "ite</w>", "ited</w>", "iti", "its</w>", "ity</w>", "j", "jo", "ju", "k", "k</w>", "ke", "ke</w>", "ket</w>", "ks</w>", "l", "l</w>", "land</w>", "last</w>", "ld</w>", "le", "le</w>", "lead", "li", "lin", "lion</w>", "lo", "loo", "low", "lt</w>", "ly</w>", "m", "m</w>", "ma", "mak", "man", "mar", "me", "med", "ment</w>", "mic", "mil", "min", "mis", "mo", "mon", "monday</w>", "more</w>", "mp", "n", "n</w>", "na", "national</w>", "ne", "net", "net</w>", "new", "new</w>", "ning</w>", "not</w>", "o", "o</w>", "oc", "of", "of</w>", "off", "off</w>", "offic", "oil</w>", "ol", "old</w>", "oly", "olymp", "olympic</w>", "om", "om</w>", "ome</w>", "on", "on</w>", "ond</w>", "one</w>", "ong</w>", "oo", "op", "or", "or</w>", "ore</w>", "ors</w>", "ot", "ot</w>", "ote</w>", "other</w>", "ou", "oug", "ould</w>", "oun", "ound</w>", "our", "our</w>", "out", "out</w>", "ov", "over", "over</w>", "ow", "ow</w>", "p", "p</w>", "par", "pe", "per", "ph", "pl", "po", "pol", "por", "pr", "pre", "presid", "prices</w>", "pro", "prof", "ps</w>", "pu", "publ", "public</w>", "q", "qu", "quar", "quot</w>", "quote</w>", "r", "ra", "re", "recor", "red</w>", "repor", "reuters</w>", "ri", "ric", "ro", "row", "ru", "s", "s</w>", "sa", "said</w>", "sal", "sc", "se", "se</w>", "sear", "search</w>", "sec", "secur", "ser", "serv", "sh", "sh</w>", "si", "sid", "sion</w>", "sof", "sp", "ss</w>", "st", "st</w>", "star", "ste", "stoc", "stocks</w>", "str", "sts</w>", "su", "sur", "sy", "t", "t</w>", "te", "ted</w>", "ter", "ter</w>", "th", "th</w>", "than</w>", "that</w>", "the", "the</w>", "their</w>", "ther</w>", "they</w>", "this</w>", "thre", "ti", "tic", "tim", "time</w>", "ting</w>", "tion", "tion</w>", "tional</w>", "tions</w>", "tive</w>", "to", "to</w>", "ton</w>", "tor", "tr", "ts</w>", "tu", "tuesday</w>", "tur", "tw", "two</w>", "ty</w>", "u", "u</w>", "uc", "ue</w>", "ul", "um", "un", "und", "up", "up</w>", "ur", "us", "us</w>", "ust</w>", "ut", "uters</w>", "v", "ve", "ve</w>", "ven", "ver", "vi", "w", "w</w>", "was</w>", "we", "wed", "wednesday</w>", "wee", "were</w>", "wh", "who</w>", "wi", "will</w>", "win", "with</w>", "wor", "world</w>", "x", "x</w>", "y", "y</w>", "year</w>", "yor", "york</w>", "ys</w>", "z"]}